dd cf 3d 54 f2 9f fb d6 f5 d3 c0 dc 27 b7 7d 32 56 38 d5 2a 4c be 0f 7f 2b a4 cb fa 1c f3 99 a1 06 13 22 03 00 2d ef 10 01 d9 17 10 0d 1e 01 fa
ee 31 9a bd f7 40 9d e9 e6 0f 92 fe 1f 16 b1 46 8f 4c 27 13 07 53 1f d3 05 55 80 0a e1 d8 31 0e 17 1e fc fe e0 02 15 f7 18 f1 14 ff ec 0e f4 17
57 35 19 cb 1e 28 e9 e2 0c e4 05 55 0d 11 13 52 da 42 7f 5c f4 d5 df e2 d6 b9 9f ce 0e f2 28 3b 36 f2 f8 0e fc 19 1e 16 e0 ff e4 e4 1d 0c fe 04
6f 4a 04 09 12 34 13 2c eb 14 18 d8 38 df 2a f4 c4 33 50 1d 81 ba a1 d8 cd 0a 6a 32 19 fb f9 e2 20 e4 1c fc e5 1f f0 0e 08 f6 10 18 e5 f8 f7 1a
0d 81 b0 97 01 0d 1f cc 47 fc 34 12 05 04 cd e1 68 df fe 0d 0c bc 3c f2 18 3c e5 e4 10 0a 10 1c e8 ef ff 01 0b e9 ed 10 06 15 0d 0c e7 11 16 fe
fa 0a 1a 7f f0 33 f3 31 ff 1d 08 b9 28 04 08 e1 fc eb 95 a7 de 10 e5 ed f5 1b 38 53 25 06 fc e7 1a f9 02 0b f5 05 0b f5 ed e7 02 f5 ef 02 04 f8
cb ae dc 14 bb 9b b8 42 eb d7 f5 4c f9 0c 55 29 e7 b6 80 ad 34 f8 c3 31 39 00 44 2d 17 2f fe db e0 e8 e8 fe 11 df 15 02 f8 0b 00 ef f2 ff 03 e7
3a 38 5d 11 5b 02 1d ed 3a f3 9f 57 e6 e0 9e fa 55 f3 07 f8 01 fb 7f 45 28 cf b7 90 9b 18 e4 00 17 e6 07 06 11 ff e6 e4 14 f0 eb 22 f9 ef e9 0a
f2 29 25 11 20 e1 0e 45 c8 eb 12 d5 08 df 1b e4 c8 db 19 30 2f 7f bb d2 26 d6 23 1b 1d 0b 17 10 13 17 fc e1 fa eb 02 f7 08 dd 1d e4 14 e3 0b ed
a0 30 18 1d e3 0d 6f b8 f1 5f 3e 80 d5 16 b3 89 dc c9 20 01 00 0a 78 44 0c 23 fb bb f3 0c c9 3e 13 e0 e9 09 ec e0 0a f3 fa ef f1 f5 23 fc 0d 05
