f7 fc c8 df fd d9 14 36 05 be 7f 6e 10 e0 b1 10 ee 1c 43 ff e5 cf dd 08 da a1 c9 00 f3 5a 34 e7 ec f2 24 31 5a 29 10 03 42 39 c5 e1 19 d4 02 c5
f9 2c 58 4f f9 2f 3f ef d8 6e e4 1e 07 f6 f2 f6 27 04 ae a6 22 16 da ba df f2 a3 e4 34 9b 0c 7f b5 09 66 9e d3 10 24 11 01 16 24 b9 6e 13 fb 0d
1d 0a ce ed dc 0e 5e 1a 05 f9 21 e7 fd c2 c0 f3 46 21 18 c5 08 11 e7 ef 07 f8 dc 2b 00 1b 12 7f bc c7 f8 f9 a9 e2 15 f2 6a 2c 32 f6 14 0b f3 10
e6 15 2a f7 28 7f 1a 01 db cb ad ea f5 35 22 2e 56 4e 16 f2 f6 16 0b 2d b8 27 23 e4 4c 09 f7 03 84 8e e3 38 ca b9 bc f0 96 a9 d2 3d b9 c2 e1 fa
1e 29 3a 2c 15 d1 15 02 d3 18 0e d5 ec fc 0f 07 f9 80 98 9f 12 17 ed d5 18 52 5d 32 f5 c5 eb ea 07 2f 2b 31 1f 06 f2 1d 03 f4 25 bb f8 38 1a 15
ed ff 0a 06 14 e8 80 aa f9 f6 f1 d9 f9 1d 21 20 e8 f6 18 5c 04 17 17 ff 0b 10 f9 fc 3e 16 f3 da 2e 1d e9 d5 ca f5 0c ef d5 ee fc 25 ed fe 12 f4
f9 1c 42 d1 f7 c8 9b b1 16 d0 ef 3e 37 07 f2 09 a7 80 d6 2a b7 bb f0 33 ce e9 10 31 ed 5f 5b fc 53 1d e6 8d 5c 21 26 df 50 2f 31 6d bc e5 e7 b1
be d8 02 10 20 f9 29 07 ff 32 4c 2d cd 0f f9 cf 52 2b 5b ed 29 fe dc fc 1e e9 d4 7f c7 b6 00 ad b1 de fc 0c 13 18 27 25 ed 10 fe b8 43 59 2e 0a
e6 f6 ab 24 ec 0f 2c 57 77 14 80 a4 46 0b 23 fd e1 3e e7 45 2f 2b e2 41 e9 bf 46 cb e5 53 f8 db 34 28 d8 33 02 a0 fa b2 4e fc fd e8 42 ac ec 01
13 d1 8e a3 f2 f9 1f 3b fc 29 06 18 fb 06 26 01 d8 fa 17 0e ec 25 33 d8 f1 7f 1f c2 2a fc aa ae 02 de 17 50 2f 19 0b fa a7 bd 05 18 ee 31 f7 d6
