f9 f4 05 00 f1 ff 0b 0b 1d ff 10 f9 1f f6 de fb 0b 14 01 07 29 f5 ff 17 0d 0e e1 00 24 0d d5 d4 00 f5 f7 2c ed e3 03 0b ea f4 f8 d5 0b 04 00 12
f4 0f 27 12 f2 f1 0e 24 fe 1d 07 0e 05 17 2f fe 00 01 10 19 f5 fa 07 e3 ea e0 02 de 00 ff 09 00 00 0a d8 d3 05 fd e6 14 e5 ef e2 07 fd df 19 24
ee 1c 02 03 d4 ed 0c ef f7 f2 f4 03 1f 1b 09 e9 de 0f 11 27 f0 f1 f5 f6 e1 f0 ea d6 1c 13 0a 06 0f 21 1d f4 26 01 fc dd e7 f5 08 11 f5 11 05 35
e5 f0 fd 05 09 fc e3 fc 0a 06 06 fb d0 af e5 ef e7 ed 0c 2c d8 f2 fe e7 ee 02 21 2c 06 01 0c fc 1e 30 0f e6 20 fa 00 1f 01 02 24 fa 18 f8 0e e2
10 0d 09 15 10 05 0f f7 ec 0b f6 00 00 15 12 19 06 12 f0 27 0e f7 ec 09 05 26 de eb f9 f4 0b 0b ed d8 cc b2 f0 f6 14 bb 08 28 09 17 03 fc df 15
24 0d 06 f5 0b 24 01 f6 ff e9 07 fb d8 c0 e4 fc 03 08 ed af 04 11 f3 c8 05 0a 1f 3d f5 0d f7 11 f8 f9 12 48 09 01 f2 41 10 0f 05 df 1e 0c 00 d0
ff 0b 19 0d 06 14 fb f0 15 10 e1 e9 20 0a ef 03 02 f7 d7 ba 2b 09 d3 e0 f6 07 0d 2e 14 37 fb fc f5 d0 e9 2b e6 b7 f2 14 fb e9 fe 0b fa 18 19 19
f4 fa e8 16 e8 ef 14 fa 13 02 1f 0b eb 30 2a 26 28 01 dd 03 e7 c4 08 36 01 00 fe dd bf f0 ff e9 1a 1f 13 01 0f 14 0a ef 07 f5 f1 1a ec fe d6 26
1a 14 03 f6 08 fc e1 f1 eb de f3 f9 1b fc f7 f5 e5 f8 fa 21 36 31 10 dd ff 0e 08 ec 21 0d 0c 25 f9 0a 21 00 0c 00 f9 12 0c dc f9 1f 02 f6 03 d3
f2 d9 f3 06 18 00 fb 06 0f fe e8 0e da e8 2a 10 dc d5 ee f5 14 1a 09 43 3b ec 00 0e e3 f0 f6 ff ec 06 27 07 e0 1a 16 c6 eb 40 f7 db f3 0f e3 db
